const unsigned char model[] = {
  0x1c, 0x00, 0x00, 0x00, 0x54, 0x46, 0x4c, 0x33, 0x14, 0x00, 0x20, 0x00,
  0x1c, 0x00, 0x18, 0x00, 0x14, 0x00, 0x10, 0x00, 0x0c, 0x00, 0x00, 0x00,
  0x08, 0x00, 0x04, 0x00, 0x14, 0x00, 0x00, 0x00, 0x1c, 0x00, 0x00, 0x00,
  0x8c, 0x00, 0x00, 0x00, 0xe4, 0x00, 0x00, 0x00, 0x7c, 0x05, 0x00, 0x00,
  0x8c, 0x05, 0x00, 0x00, 0x10, 0x0b, 0x00, 0x00, 0x03, 0x00, 0x00, 0x00,
  0x01, 0x00, 0x00, 0x00, 0x10, 0x00, 0x00, 0x00, 0x00, 0x00, 0x0a, 0x00,
  0x10, 0x00, 0x0c, 0x00, 0x08, 0x00, 0x04, 0x00, 0x0a, 0x00, 0x00, 0x00,
  0x0c, 0x00, 0x00, 0x00, 0x1c, 0x00, 0x00, 0x00, 0x38, 0x00, 0x00, 0x00,
  0x0f, 0x00, 0x00, 0x00, 0x73, 0x65, 0x72, 0x76, 0x69, 0x6e, 0x67, 0x5f,
  0x64, 0x65, 0x66, 0x61, 0x75, 0x6c, 0x74, 0x00, 0x01, 0x00, 0x00, 0x00,
  0x04, 0x00, 0x00, 0x00, 0x9c, 0xff, 0xff, 0xff, 0x09, 0x00, 0x00, 0x00,
  0x04, 0x00, 0x00, 0x00, 0x07, 0x00, 0x00, 0x00, 0x64, 0x65, 0x6e, 0x73,
  0x65, 0x5f, 0x33, 0x00, 0x01, 0x00, 0x00, 0x00, 0x04, 0x00, 0x00, 0x00,
  0x76, 0xfa, 0xff, 0xff, 0x04, 0x00, 0x00, 0x00, 0x05, 0x00, 0x00, 0x00,
  0x69, 0x6e, 0x70, 0x75, 0x74, 0x00, 0x00, 0x00, 0x02, 0x00, 0x00, 0x00,
  0x34, 0x00, 0x00, 0x00, 0x04, 0x00, 0x00, 0x00, 0xdc, 0xff, 0xff, 0xff,
  0x0c, 0x00, 0x00, 0x00, 0x04, 0x00, 0x00, 0x00, 0x13, 0x00, 0x00, 0x00,
  0x43, 0x4f, 0x4e, 0x56, 0x45, 0x52, 0x53, 0x49, 0x4f, 0x4e, 0x5f, 0x4d,
  0x45, 0x54, 0x41, 0x44, 0x41, 0x54, 0x41, 0x00, 0x08, 0x00, 0x0c, 0x00,
  0x08, 0x00, 0x04, 0x00, 0x08, 0x00, 0x00, 0x00, 0x0b, 0x00, 0x00, 0x00,
  0x04, 0x00, 0x00, 0x00, 0x13, 0x00, 0x00, 0x00, 0x6d, 0x69, 0x6e, 0x5f,
  0x72, 0x75, 0x6e, 0x74, 0x69, 0x6d, 0x65, 0x5f, 0x76, 0x65, 0x72, 0x73,
  0x69, 0x6f, 0x6e, 0x00, 0x0d, 0x00, 0x00, 0x00, 0x94, 0x04, 0x00, 0x00,
  0x8c, 0x04, 0x00, 0x00, 0x70, 0x04, 0x00, 0x00, 0xe0, 0x03, 0x00, 0x00,
  0xcc, 0x03, 0x00, 0x00, 0x3c, 0x02, 0x00, 0x00, 0xac, 0x00, 0x00, 0x00,
  0xa4, 0x00, 0x00, 0x00, 0x9c, 0x00, 0x00, 0x00, 0x94, 0x00, 0x00, 0x00,
  0x8c, 0x00, 0x00, 0x00, 0x6c, 0x00, 0x00, 0x00, 0x04, 0x00, 0x00, 0x00,
  0x1e, 0xfb, 0xff, 0xff, 0x04, 0x00, 0x00, 0x00, 0x58, 0x00, 0x00, 0x00,
  0x0c, 0x00, 0x00, 0x00, 0x08, 0x00, 0x0e, 0x00, 0x08, 0x00, 0x04, 0x00,
  0x08, 0x00, 0x00, 0x00, 0x10, 0x00, 0x00, 0x00, 0x28, 0x00, 0x00, 0x00,
  0x00, 0x00, 0x06, 0x00, 0x08, 0x00, 0x04, 0x00, 0x06, 0x00, 0x00, 0x00,
  0x04, 0x00, 0x00, 0x00, 0x01, 0x00, 0x00, 0x00, 0xea, 0x03, 0x00, 0x00,
  0x00, 0x00, 0x0a, 0x00, 0x10, 0x00, 0x0c, 0x00, 0x08, 0x00, 0x04, 0x00,
  0x0a, 0x00, 0x00, 0x00, 0x02, 0x00, 0x00, 0x00, 0x02, 0x00, 0x00, 0x00,
  0x04, 0x00, 0x00, 0x00, 0x06, 0x00, 0x00, 0x00, 0x32, 0x2e, 0x31, 0x35,
  0x2e, 0x30, 0x00, 0x00, 0x82, 0xfb, 0xff, 0xff, 0x04, 0x00, 0x00, 0x00,
  0x10, 0x00, 0x00, 0x00, 0x31, 0x2e, 0x31, 0x31, 0x2e, 0x30, 0x00, 0x00,
  0x00, 0x00, 0x00, 0x00, 0x00, 0x00, 0x00, 0x00, 0xb4, 0xf6, 0xff, 0xff,
  0xb8, 0xf6, 0xff, 0xff, 0xbc, 0xf6, 0xff, 0xff, 0xc0, 0xf6, 0xff, 0xff,
  0xae, 0xfb, 0xff, 0xff, 0x04, 0x00, 0x00, 0x00, 0x80, 0x01, 0x00, 0x00,
  0x7a, 0xd0, 0xa3, 0xbf, 0x17, 0x73, 0x77, 0x3f, 0x60, 0x7b, 0x69, 0xbf,
  0x1c, 0xc1, 0x25, 0xbe, 0xa8, 0xc1, 0x81, 0xbd, 0x1f, 0x22, 0x6a, 0x3f,
  0x2e, 0x72, 0x3b, 0x3e, 0xd0, 0x22, 0x00, 0x3f, 0x3f, 0xf4, 0xb4, 0x3e,
  0xe8, 0xd9, 0xbc, 0x3e, 0xbd, 0x3e, 0xf3, 0x3d, 0xfb, 0x0f, 0x40, 0xbd,
  0x7e, 0x1c, 0xe1, 0xbe, 0xc7, 0x22, 0x0b, 0x3f, 0x7b, 0xc1, 0x0b, 0x3f,
  0x7c, 0xb2, 0x92, 0xbe, 0x2d, 0xb8, 0xdf, 0x3e, 0xa2, 0xb6, 0xf1, 0xbd,
  0x2d, 0xce, 0xbc, 0x3e, 0x75, 0x91, 0x5b, 0xbf, 0x58, 0x1d, 0x1f, 0x3f,
  0x98, 0xd7, 0xe3, 0x3e, 0x9f, 0x86, 0x2c, 0x3e, 0x2b, 0xe3, 0x33, 0x3f,
  0xf3, 0xb4, 0x8a, 0x3e, 0x6b, 0xb5, 0x87, 0xbe, 0x82, 0xef, 0x2b, 0xbe,
  0x91, 0x62, 0x81, 0x3e, 0xc2, 0xb4, 0x0d, 0x3d, 0x2f, 0xc9, 0x79, 0xbf,
  0xf3, 0xa0, 0xbb, 0xbe, 0x2a, 0x75, 0xe8, 0xbe, 0x0e, 0x5a, 0x8d, 0x3d,
  0x39, 0xc3, 0x5e, 0xbf, 0x12, 0x85, 0x8c, 0xbe, 0x11, 0x01, 0x98, 0x3e,
  0xf4, 0xad, 0xfb, 0x3d, 0xcd, 0x9b, 0x10, 0x3f, 0x5a, 0x9c, 0xa5, 0x3e,
  0xd7, 0xc6, 0xdb, 0x3e, 0xa3, 0x2b, 0x49, 0xbe, 0xf1, 0xdc, 0x86, 0x3e,
  0xc2, 0x49, 0x7e, 0xbe, 0x69, 0x31, 0x03, 0x3f, 0x8e, 0x3f, 0x77, 0xbe,
  0x56, 0x50, 0xa3, 0xbe, 0x73, 0x6c, 0x89, 0xbe, 0xd7, 0xab, 0x27, 0xbf,
  0xcb, 0x2b, 0x27, 0xbe, 0x56, 0x31, 0x4b, 0xbf, 0xd8, 0xd1, 0x13, 0xbd,
  0x28, 0xd5, 0x11, 0x3f, 0xb7, 0x23, 0xa7, 0x3e, 0x73, 0x86, 0xde, 0x3d,
  0xb4, 0x57, 0x60, 0xbf, 0x85, 0x68, 0x39, 0x3f, 0xc0, 0xe2, 0x7c, 0xbe,
  0x30, 0x65, 0xab, 0x3e, 0x91, 0x89, 0xd7, 0x3e, 0xe0, 0x33, 0x04, 0x3d,
  0x9b, 0xf2, 0xf7, 0x3e, 0x3a, 0x19, 0xc1, 0xbe, 0x4f, 0x73, 0x4f, 0x3f,
  0x40, 0x99, 0x2f, 0x3f, 0x0e, 0xf1, 0x25, 0x3f, 0x55, 0xb9, 0xd0, 0xbe,
  0x07, 0xb9, 0x78, 0x3f, 0x68, 0x4d, 0x46, 0x3e, 0x22, 0x1b, 0x54, 0x3e,
  0x7f, 0xbc, 0xaa, 0xbf, 0x66, 0xc5, 0xb7, 0x3e, 0x9e, 0x07, 0xd1, 0xbe,
  0x68, 0x4d, 0x98, 0x3d, 0xa7, 0xde, 0xb7, 0x3e, 0x67, 0xf9, 0x1a, 0x3e,
  0x6a, 0x66, 0x77, 0x3e, 0x2b, 0x32, 0x9a, 0x3e, 0x8f, 0x5a, 0x35, 0xbe,
  0x10, 0x62, 0xdd, 0xbe, 0x62, 0x8a, 0xd7, 0x3e, 0x57, 0x97, 0x3b, 0xbf,
  0x83, 0xed, 0xa8, 0x3e, 0xd0, 0x35, 0x39, 0x3d, 0xb8, 0x92, 0x58, 0xbf,
  0x9f, 0xd4, 0xab, 0xbe, 0xa3, 0x77, 0xab, 0xbf, 0x82, 0x06, 0x2d, 0x3e,
  0x0f, 0x21, 0x2e, 0xbf, 0x7f, 0x8a, 0xcc, 0xbe, 0x56, 0x46, 0xe7, 0x3d,
  0x51, 0x1e, 0xae, 0xbe, 0x00, 0x59, 0x89, 0x3d, 0x8a, 0x59, 0x63, 0xbf,
  0x59, 0xe3, 0x04, 0x3f, 0xfb, 0x36, 0x03, 0xbf, 0xb3, 0x47, 0x0b, 0xbf,
  0x3a, 0xfd, 0xff, 0xff, 0x04, 0x00, 0x00, 0x00, 0x80, 0x01, 0x00, 0x00,
  0xbc, 0xc4, 0x97, 0xbe, 0xfa, 0x76, 0x4b, 0x3c, 0xf5, 0x3d, 0x71, 0x3e,
  0x3f, 0x51, 0x32, 0x3f, 0x8c, 0x9a, 0x11, 0xbe, 0xa1, 0xdb, 0x1c, 0xbf,
  0x5e, 0xf6, 0x1e, 0xbf, 0x94, 0x8b, 0x79, 0x3e, 0x97, 0x98, 0xa5, 0x3e,
  0xc8, 0x71, 0x96, 0x3e, 0x1e, 0x1b, 0x9c, 0xbe, 0x06, 0x25, 0xca, 0x3d,
  0x4f, 0x86, 0xcd, 0xbe, 0xc6, 0xd2, 0x9d, 0xbe, 0xe6, 0x86, 0x9f, 0xbe,
  0xb3, 0x61, 0x09, 0x3f, 0xd7, 0x23, 0x96, 0x3e, 0xb4, 0x1f, 0xf6, 0xbd,
  0x8a, 0x26, 0x13, 0xbe, 0x5d, 0x61, 0x74, 0xbd, 0x4d, 0xc6, 0xee, 0x3c,
  0xe1, 0x1c, 0x81, 0x3f, 0x56, 0x2f, 0x59, 0x3b, 0x72, 0x84, 0xd1, 0x3e,
  0xe4, 0xec, 0x80, 0xbd, 0x92, 0x47, 0x19, 0xbe, 0x1e, 0xc8, 0x72, 0xbe,
  0xae, 0x8d, 0x5b, 0xbe, 0x05, 0x8f, 0x68, 0xbd, 0x59, 0x1c, 0x5c, 0x3d,
  0x40, 0x81, 0x95, 0xbe, 0xa5, 0x6c, 0x7c, 0xbe, 0xc7, 0x82, 0x17, 0x3e,
  0xfe, 0x03, 0x62, 0x3e, 0x4c, 0x64, 0xee, 0xbe, 0x46, 0xa0, 0x31, 0xbc,
  0x69, 0x64, 0xa0, 0xbe, 0x1a, 0x87, 0xce, 0xbe, 0x1b, 0xc3, 0x33, 0x3e,
  0xda, 0x4f, 0x0a, 0x3f, 0xc7, 0xd2, 0xcb, 0xbc, 0x04, 0x3f, 0xe4, 0x3e,
  0xe8, 0x4d, 0x1f, 0x3f, 0x99, 0x7d, 0x37, 0x3e, 0xa0, 0x05, 0x46, 0xbc,
  0xf6, 0x09, 0x5d, 0xbf, 0x15, 0xac, 0x3a, 0x3e, 0x48, 0x68, 0x33, 0x3f,
  0x8f, 0x6d, 0x5c, 0x3e, 0x4b, 0x16, 0xcc, 0x3d, 0xc9, 0x2e, 0x13, 0x3f,
  0x67, 0x18, 0x22, 0xbf, 0xb2, 0x15, 0x67, 0x3e, 0x78, 0x53, 0x06, 0x3f,
  0x20, 0xe8, 0xea, 0x3c, 0x00, 0x75, 0x05, 0xbe, 0x04, 0x27, 0xea, 0xbd,
  0x4b, 0x82, 0xd1, 0xbc, 0x14, 0xb9, 0xd8, 0xbe, 0x75, 0x30, 0xcd, 0x3e,
  0x1a, 0xe2, 0x2f, 0x3f, 0xcc, 0x37, 0x1c, 0x3e, 0xbb, 0x83, 0xae, 0x3e,
  0x4c, 0x7f, 0x30, 0x3f, 0xde, 0x91, 0x5f, 0x3e, 0x41, 0x47, 0xdc, 0xbe,
  0xbb, 0x09, 0xf0, 0x3e, 0x4a, 0x95, 0xfc, 0xbd, 0x30, 0xa7, 0xc5, 0xbe,
  0x6c, 0x2e, 0x8a, 0x3f, 0xac, 0x18, 0x0d, 0xbe, 0x18, 0xc3, 0x63, 0x3e,
  0xee, 0xef, 0x5d, 0xbe, 0xe0, 0xfb, 0x30, 0x3c, 0x2d, 0xf0, 0x95, 0xbe,
  0x74, 0x85, 0x78, 0x3e, 0x29, 0xe5, 0xda, 0xbd, 0x5e, 0xe9, 0xa1, 0x3e,
  0x31, 0xad, 0x7b, 0x3d, 0xaa, 0x2b, 0x9e, 0x3e, 0x81, 0x9d, 0xc2, 0xbe,
  0xd4, 0xf5, 0xb1, 0xbd, 0xe6, 0xc2, 0x34, 0xbe, 0x07, 0x1b, 0x2a, 0xbe,
  0xfd, 0xf3, 0x75, 0x3f, 0x50, 0x2e, 0xbc, 0xbd, 0x0b, 0xf6, 0xca, 0xbc,
  0x27, 0x54, 0x3c, 0xbf, 0x9d, 0xa4, 0x8e, 0x3e, 0x0b, 0x98, 0x53, 0x3d,
  0xc3, 0xdd, 0x85, 0x3e, 0x7c, 0x7a, 0x2a, 0xbf, 0xcf, 0x6d, 0xd8, 0x3e,
  0x5b, 0xe9, 0x14, 0x3c, 0x76, 0x0c, 0xd4, 0xbe, 0x3e, 0x0a, 0xce, 0x3e,
  0xc6, 0xfe, 0xff, 0xff, 0x04, 0x00, 0x00, 0x00, 0x04, 0x00, 0x00, 0x00,
  0x01, 0x00, 0x00, 0x00, 0xd6, 0xfe, 0xff, 0xff, 0x04, 0x00, 0x00, 0x00,
  0x80, 0x00, 0x00, 0x00, 0x37, 0x58, 0x35, 0x3f, 0x6e, 0x69, 0x3a, 0xbe,
  0x19, 0xf3, 0x12, 0x3f, 0xf9, 0xa4, 0x22, 0xbe, 0x00, 0x00, 0x00, 0x00,
  0xf5, 0xca, 0x84, 0xbe, 0x3a, 0xbd, 0x52, 0xbd, 0x04, 0xed, 0x20, 0xbe,
  0x00, 0x00, 0x00, 0x00, 0xdf, 0x35, 0x54, 0xbd, 0x97, 0x05, 0xe7, 0xbd,
  0xe0, 0x8e, 0x5c, 0xbd, 0x6a, 0x50, 0xa7, 0xbd, 0x6c, 0x3f, 0xc0, 0xbe,
  0xbf, 0x9d, 0x98, 0xbe, 0x5e, 0xc5, 0x9e, 0x3e, 0xdc, 0xe9, 0x82, 0xbe,
  0x23, 0x1b, 0x89, 0x3d, 0x00, 0x00, 0x00, 0x00, 0x00, 0x33, 0x1d, 0x3e,
  0xd4, 0x44, 0x87, 0xbe, 0x12, 0xae, 0xcf, 0xbd, 0xac, 0x25, 0x01, 0xbe,
  0xae, 0x3f, 0x07, 0x3d, 0x00, 0x00, 0x00, 0x00, 0x93, 0x6c, 0xb1, 0x3e,
  0x10, 0x82, 0xc0, 0xbd, 0x00, 0x00, 0x00, 0x00, 0x02, 0x49, 0xf8, 0x3d,
  0x81, 0x51, 0x19, 0x3f, 0x72, 0x96, 0x32, 0x3e, 0x1b, 0xf3, 0x08, 0x3e,
  0x62, 0xff, 0xff, 0xff, 0x04, 0x00, 0x00, 0x00, 0x0c, 0x00, 0x00, 0x00,
  0xd4, 0xc3, 0xc6, 0xbe, 0xc2, 0x29, 0x49, 0x3e, 0xd0, 0x4c, 0xab, 0x3e,
  0x90, 0xfa, 0xff, 0xff, 0x94, 0xfa, 0xff, 0xff, 0x0f, 0x00, 0x00, 0x00,
  0x4d, 0x4c, 0x49, 0x52, 0x20, 0x43, 0x6f, 0x6e, 0x76, 0x65, 0x72, 0x74,
  0x65, 0x64, 0x2e, 0x00, 0x01, 0x00, 0x00, 0x00, 0x14, 0x00, 0x00, 0x00,
  0x00, 0x00, 0x0e, 0x00, 0x18, 0x00, 0x14, 0x00, 0x10, 0x00, 0x0c, 0x00,
  0x08, 0x00, 0x04, 0x00, 0x0e, 0x00, 0x00, 0x00, 0x14, 0x00, 0x00, 0x00,
  0x1c, 0x00, 0x00, 0x00, 0x24, 0x01, 0x00, 0x00, 0x28, 0x01, 0x00, 0x00,
  0x2c, 0x01, 0x00, 0x00, 0x04, 0x00, 0x00, 0x00, 0x6d, 0x61, 0x69, 0x6e,
  0x00, 0x00, 0x00, 0x00, 0x04, 0x00, 0x00, 0x00, 0xdc, 0x00, 0x00, 0x00,
  0x88, 0x00, 0x00, 0x00, 0x40, 0x00, 0x00, 0x00, 0x04, 0x00, 0x00, 0x00,
  0x92, 0xff, 0xff, 0xff, 0x1c, 0x00, 0x00, 0x00, 0x00, 0x00, 0x00, 0x09,
  0x1c, 0x00, 0x00, 0x00, 0x20, 0x00, 0x00, 0x00, 0x02, 0x00, 0x00, 0x00,
  0x00, 0x00, 0x06, 0x00, 0x08, 0x00, 0x04, 0x00, 0x06, 0x00, 0x00, 0x00,
  0x00, 0x00, 0x80, 0x3f, 0x01, 0x00, 0x00, 0x00, 0x09, 0x00, 0x00, 0x00,
  0x01, 0x00, 0x00, 0x00, 0x08, 0x00, 0x00, 0x00, 0xca, 0xff, 0xff, 0xff,
  0x14, 0x00, 0x00, 0x00, 0x00, 0x00, 0x00, 0x08, 0x10, 0x00, 0x00, 0x00,
  0x14, 0x00, 0x00, 0x00, 0x01, 0x00, 0x00, 0x00, 0x4c, 0xfb, 0xff, 0xff,
  0x01, 0x00, 0x00, 0x00, 0x08, 0x00, 0x00, 0x00, 0x03, 0x00, 0x00, 0x00,
  0x07, 0x00, 0x00, 0x00, 0x05, 0x00, 0x00, 0x00, 0x01, 0x00, 0x00, 0x00,
  0x00, 0x00, 0x0e, 0x00, 0x1a, 0x00, 0x14, 0x00, 0x10, 0x00, 0x0c, 0x00,
  0x0b, 0x00, 0x04, 0x00, 0x0e, 0x00, 0x00, 0x00, 0x1c, 0x00, 0x00, 0x00,
  0x00, 0x00, 0x00, 0x08, 0x1c, 0x00, 0x00, 0x00, 0x20, 0x00, 0x00, 0x00,
  0x01, 0x00, 0x00, 0x00, 0x00, 0x00, 0x06, 0x00, 0x08, 0x00, 0x07, 0x00,
  0x06, 0x00, 0x00, 0x00, 0x00, 0x00, 0x00, 0x01, 0x01, 0x00, 0x00, 0x00,
  0x07, 0x00, 0x00, 0x00, 0x03, 0x00, 0x00, 0x00, 0x06, 0x00, 0x00, 0x00,
  0x04, 0x00, 0x00, 0x00, 0x02, 0x00, 0x00, 0x00, 0x00, 0x00, 0x0e, 0x00,
  0x14, 0x00, 0x00, 0x00, 0x10, 0x00, 0x0c, 0x00, 0x0b, 0x00, 0x04, 0x00,
  0x0e, 0x00, 0x00, 0x00, 0x10, 0x00, 0x00, 0x00, 0x00, 0x00, 0x00, 0x1b,
  0x0c, 0x00, 0x00, 0x00, 0x10, 0x00, 0x00, 0x00, 0xdc, 0xfb, 0xff, 0xff,
  0x01, 0x00, 0x00, 0x00, 0x06, 0x00, 0x00, 0x00, 0x02, 0x00, 0x00, 0x00,
  0x00, 0x00, 0x00, 0x00, 0x03, 0x00, 0x00, 0x00, 0x01, 0x00, 0x00, 0x00,
  0x09, 0x00, 0x00, 0x00, 0x01, 0x00, 0x00, 0x00, 0x00, 0x00, 0x00, 0x00,
  0x0a, 0x00, 0x00, 0x00, 0xcc, 0x03, 0x00, 0x00, 0x5c, 0x03, 0x00, 0x00,
  0xec, 0x02, 0x00, 0x00, 0x88, 0x02, 0x00, 0x00, 0x24, 0x02, 0x00, 0x00,
  0xd8, 0x01, 0x00, 0x00, 0x70, 0x01, 0x00, 0x00, 0xdc, 0x00, 0x00, 0x00,
  0x60, 0x00, 0x00, 0x00, 0x04, 0x00, 0x00, 0x00, 0x72, 0xfc, 0xff, 0xff,
  0x00, 0x00, 0x00, 0x01, 0x14, 0x00, 0x00, 0x00, 0x1c, 0x00, 0x00, 0x00,
  0x1c, 0x00, 0x00, 0x00, 0x0a, 0x00, 0x00, 0x00, 0x34, 0x00, 0x00, 0x00,
  0x02, 0x00, 0x00, 0x00, 0xff, 0xff, 0xff, 0xff, 0x03, 0x00, 0x00, 0x00,
  0x58, 0xfc, 0xff, 0xff, 0x19, 0x00, 0x00, 0x00, 0x53, 0x74, 0x61, 0x74,
  0x65, 0x66, 0x75, 0x6c, 0x50, 0x61, 0x72, 0x74, 0x69, 0x74, 0x69, 0x6f,
  0x6e, 0x65, 0x64, 0x43, 0x61, 0x6c, 0x6c, 0x3a, 0x30, 0x00, 0x00, 0x00,
  0x02, 0x00, 0x00, 0x00, 0x01, 0x00, 0x00, 0x00, 0x03, 0x00, 0x00, 0x00,
  0xca, 0xfc, 0xff, 0xff, 0x00, 0x00, 0x00, 0x01, 0x14, 0x00, 0x00, 0x00,
  0x1c, 0x00, 0x00, 0x00, 0x1c, 0x00, 0x00, 0x00, 0x09, 0x00, 0x00, 0x00,
  0x54, 0x00, 0x00, 0x00, 0x02, 0x00, 0x00, 0x00, 0xff, 0xff, 0xff, 0xff,
  0x03, 0x00, 0x00, 0x00, 0xb0, 0xfc, 0xff, 0xff, 0x38, 0x00, 0x00, 0x00,
  0x73, 0x65, 0x71, 0x75, 0x65, 0x6e, 0x74, 0x69, 0x61, 0x6c, 0x5f, 0x31,
  0x2f, 0x64, 0x65, 0x6e, 0x73, 0x65, 0x5f, 0x33, 0x2f, 0x4d, 0x61, 0x74,
  0x4d, 0x75, 0x6c, 0x3b, 0x73, 0x65, 0x71, 0x75, 0x65, 0x6e, 0x74, 0x69,
  0x61, 0x6c, 0x5f, 0x31, 0x2f, 0x64, 0x65, 0x6e, 0x73, 0x65, 0x5f, 0x33,
  0x2f, 0x42, 0x69, 0x61, 0x73, 0x41, 0x64, 0x64, 0x00, 0x00, 0x00, 0x00,
  0x02, 0x00, 0x00, 0x00, 0x01, 0x00, 0x00, 0x00, 0x03, 0x00, 0x00, 0x00,
  0x42, 0xfd, 0xff, 0xff, 0x00, 0x00, 0x00, 0x01, 0x14, 0x00, 0x00, 0x00,
  0x1c, 0x00, 0x00, 0x00, 0x1c, 0x00, 0x00, 0x00, 0x08, 0x00, 0x00, 0x00,
  0x6c, 0x00, 0x00, 0x00, 0x02, 0x00, 0x00, 0x00, 0xff, 0xff, 0xff, 0xff,
  0x20, 0x00, 0x00, 0x00, 0x28, 0xfd, 0xff, 0xff, 0x52, 0x00, 0x00, 0x00,
  0x73, 0x65, 0x71, 0x75, 0x65, 0x6e, 0x74, 0x69, 0x61, 0x6c, 0x5f, 0x31,
  0x2f, 0x64, 0x65, 0x6e, 0x73, 0x65, 0x5f, 0x32, 0x2f, 0x4d, 0x61, 0x74,
  0x4d, 0x75, 0x6c, 0x3b, 0x73, 0x65, 0x71, 0x75, 0x65, 0x6e, 0x74, 0x69,
  0x61, 0x6c, 0x5f, 0x31, 0x2f, 0x64, 0x65, 0x6e, 0x73, 0x65, 0x5f, 0x32,
  0x2f, 0x52, 0x65, 0x6c, 0x75, 0x3b, 0x73, 0x65, 0x71, 0x75, 0x65, 0x6e,
  0x74, 0x69, 0x61, 0x6c, 0x5f, 0x31, 0x2f, 0x64, 0x65, 0x6e, 0x73, 0x65,
  0x5f, 0x32, 0x2f, 0x42, 0x69, 0x61, 0x73, 0x41, 0x64, 0x64, 0x00, 0x00,
  0x02, 0x00, 0x00, 0x00, 0x01, 0x00, 0x00, 0x00, 0x20, 0x00, 0x00, 0x00,
  0xd2, 0xfd, 0xff, 0xff, 0x00, 0x00, 0x00, 0x01, 0x14, 0x00, 0x00, 0x00,
  0x1c, 0x00, 0x00, 0x00, 0x1c, 0x00, 0x00, 0x00, 0x07, 0x00, 0x00, 0x00,
  0x40, 0x00, 0x00, 0x00, 0x02, 0x00, 0x00, 0x00, 0xff, 0xff, 0xff, 0xff,
  0x03, 0x00, 0x00, 0x00, 0xb8, 0xfd, 0xff, 0xff, 0x25, 0x00, 0x00, 0x00,
  0x73, 0x65, 0x71, 0x75, 0x65, 0x6e, 0x74, 0x69, 0x61, 0x6c, 0x5f, 0x31,
  0x2f, 0x67, 0x6c, 0x6f, 0x62, 0x61, 0x6c, 0x5f, 0x6d, 0x61, 0x78, 0x5f,
  0x70, 0x6f, 0x6f, 0x6c, 0x69, 0x6e, 0x67, 0x31, 0x64, 0x2f, 0x4d, 0x61,
  0x78, 0x00, 0x00, 0x00, 0x02, 0x00, 0x00, 0x00, 0x01, 0x00, 0x00, 0x00,
  0x03, 0x00, 0x00, 0x00, 0xa2, 0xfe, 0xff, 0xff, 0x00, 0x00, 0x00, 0x01,
  0x10, 0x00, 0x00, 0x00, 0x10, 0x00, 0x00, 0x00, 0x06, 0x00, 0x00, 0x00,
  0x28, 0x00, 0x00, 0x00, 0x0c, 0xfe, 0xff, 0xff, 0x1b, 0x00, 0x00, 0x00,
  0x73, 0x65, 0x71, 0x75, 0x65, 0x6e, 0x74, 0x69, 0x61, 0x6c, 0x5f, 0x31,
  0x2f, 0x64, 0x65, 0x6e, 0x73, 0x65, 0x5f, 0x33, 0x2f, 0x4d, 0x61, 0x74,
  0x4d, 0x75, 0x6c, 0x00, 0x02, 0x00, 0x00, 0x00, 0x03, 0x00, 0x00, 0x00,
  0x20, 0x00, 0x00, 0x00, 0xea, 0xfe, 0xff, 0xff, 0x00, 0x00, 0x00, 0x01,
  0x10, 0x00, 0x00, 0x00, 0x10, 0x00, 0x00, 0x00, 0x05, 0x00, 0x00, 0x00,
  0x28, 0x00, 0x00, 0x00, 0x54, 0xfe, 0xff, 0xff, 0x1b, 0x00, 0x00, 0x00,
  0x73, 0x65, 0x71, 0x75, 0x65, 0x6e, 0x74, 0x69, 0x61, 0x6c, 0x5f, 0x31,
  0x2f, 0x64, 0x65, 0x6e, 0x73, 0x65, 0x5f, 0x32, 0x2f, 0x4d, 0x61, 0x74,
  0x4d, 0x75, 0x6c, 0x00, 0x02, 0x00, 0x00, 0x00, 0x20, 0x00, 0x00, 0x00,
  0x03, 0x00, 0x00, 0x00, 0x00, 0x00, 0x16, 0x00, 0x1c, 0x00, 0x18, 0x00,
  0x17, 0x00, 0x10, 0x00, 0x0c, 0x00, 0x08, 0x00, 0x00, 0x00, 0x00, 0x00,
  0x00, 0x00, 0x07, 0x00, 0x16, 0x00, 0x00, 0x00, 0x00, 0x00, 0x00, 0x01,
  0x14, 0x00, 0x00, 0x00, 0x14, 0x00, 0x00, 0x00, 0x04, 0x00, 0x00, 0x00,
  0x00, 0x00, 0x00, 0x02, 0x44, 0x00, 0x00, 0x00, 0xb8, 0xfe, 0xff, 0xff,
  0x37, 0x00, 0x00, 0x00, 0x73, 0x65, 0x71, 0x75, 0x65, 0x6e, 0x74, 0x69,
  0x61, 0x6c, 0x5f, 0x31, 0x2f, 0x67, 0x6c, 0x6f, 0x62, 0x61, 0x6c, 0x5f,
  0x6d, 0x61, 0x78, 0x5f, 0x70, 0x6f, 0x6f, 0x6c, 0x69, 0x6e, 0x67, 0x31,
  0x64, 0x2f, 0x4d, 0x61, 0x78, 0x2f, 0x72, 0x65, 0x64, 0x75, 0x63, 0x74,
  0x69, 0x6f, 0x6e, 0x5f, 0x69, 0x6e, 0x64, 0x69, 0x63, 0x65, 0x73, 0x00,
  0x00, 0x00, 0x00, 0x00, 0xaa, 0xff, 0xff, 0xff, 0x00, 0x00, 0x00, 0x01,
  0x10, 0x00, 0x00, 0x00, 0x10, 0x00, 0x00, 0x00, 0x03, 0x00, 0x00, 0x00,
  0x38, 0x00, 0x00, 0x00, 0x14, 0xff, 0xff, 0xff, 0x2b, 0x00, 0x00, 0x00,
  0x73, 0x65, 0x71, 0x75, 0x65, 0x6e, 0x74, 0x69, 0x61, 0x6c, 0x5f, 0x31,
  0x2f, 0x64, 0x65, 0x6e, 0x73, 0x65, 0x5f, 0x32, 0x2f, 0x42, 0x69, 0x61,
  0x73, 0x41, 0x64, 0x64, 0x2f, 0x52, 0x65, 0x61, 0x64, 0x56, 0x61, 0x72,
  0x69, 0x61, 0x62, 0x6c, 0x65, 0x4f, 0x70, 0x00, 0x01, 0x00, 0x00, 0x00,
  0x20, 0x00, 0x00, 0x00, 0x00, 0x00, 0x16, 0x00, 0x18, 0x00, 0x14, 0x00,
  0x00, 0x00, 0x10, 0x00, 0x0c, 0x00, 0x08, 0x00, 0x00, 0x00, 0x00, 0x00,
  0x00, 0x00, 0x07, 0x00, 0x16, 0x00, 0x00, 0x00, 0x00, 0x00, 0x00, 0x01,
  0x10, 0x00, 0x00, 0x00, 0x10, 0x00, 0x00, 0x00, 0x02, 0x00, 0x00, 0x00,
  0x38, 0x00, 0x00, 0x00, 0x80, 0xff, 0xff, 0xff, 0x2b, 0x00, 0x00, 0x00,
  0x73, 0x65, 0x71, 0x75, 0x65, 0x6e, 0x74, 0x69, 0x61, 0x6c, 0x5f, 0x31,
  0x2f, 0x64, 0x65, 0x6e, 0x73, 0x65, 0x5f, 0x33, 0x2f, 0x42, 0x69, 0x61,
  0x73, 0x41, 0x64, 0x64, 0x2f, 0x52, 0x65, 0x61, 0x64, 0x56, 0x61, 0x72,
  0x69, 0x61, 0x62, 0x6c, 0x65, 0x4f, 0x70, 0x00, 0x01, 0x00, 0x00, 0x00,
  0x03, 0x00, 0x00, 0x00, 0x00, 0x00, 0x16, 0x00, 0x1c, 0x00, 0x18, 0x00,
  0x00, 0x00, 0x14, 0x00, 0x10, 0x00, 0x0c, 0x00, 0x00, 0x00, 0x00, 0x00,
  0x08, 0x00, 0x07, 0x00, 0x16, 0x00, 0x00, 0x00, 0x00, 0x00, 0x00, 0x01,
  0x14, 0x00, 0x00, 0x00, 0x24, 0x00, 0x00, 0x00, 0x24, 0x00, 0x00, 0x00,
  0x01, 0x00, 0x00, 0x00, 0x38, 0x00, 0x00, 0x00, 0x03, 0x00, 0x00, 0x00,
  0xff, 0xff, 0xff, 0xff, 0xc8, 0x00, 0x00, 0x00, 0x03, 0x00, 0x00, 0x00,
  0x04, 0x00, 0x04, 0x00, 0x04, 0x00, 0x00, 0x00, 0x17, 0x00, 0x00, 0x00,
  0x73, 0x65, 0x72, 0x76, 0x69, 0x6e, 0x67, 0x5f, 0x64, 0x65, 0x66, 0x61,
  0x75, 0x6c, 0x74, 0x5f, 0x69, 0x6e, 0x70, 0x75, 0x74, 0x3a, 0x30, 0x00,
  0x03, 0x00, 0x00, 0x00, 0x01, 0x00, 0x00, 0x00, 0xc8, 0x00, 0x00, 0x00,
  0x03, 0x00, 0x00, 0x00, 0x03, 0x00, 0x00, 0x00, 0x30, 0x00, 0x00, 0x00,
  0x14, 0x00, 0x00, 0x00, 0x04, 0x00, 0x00, 0x00, 0xe8, 0xff, 0xff, 0xff,
  0x19, 0x00, 0x00, 0x00, 0x00, 0x00, 0x00, 0x19, 0xf4, 0xff, 0xff, 0xff,
  0x09, 0x00, 0x00, 0x00, 0x00, 0x00, 0x00, 0x09, 0x0c, 0x00, 0x0c, 0x00,
  0x0b, 0x00, 0x00, 0x00, 0x00, 0x00, 0x04, 0x00, 0x0c, 0x00, 0x00, 0x00,
  0x52, 0x00, 0x00, 0x00, 0x00, 0x00, 0x00, 0x52
};
